/**
  ******************************************************************************
  * @file    wmc_data.c
  * @author  AST Embedded Analytics Research Platform
  * @date    Mon Sep  6 11:16:23 2021
  * @brief   AI Tool Automatic Code Generator for Embedded NN computing
  ******************************************************************************
  * @attention
  *
  * Copyright (c) 2021 STMicroelectronics.
  * All rights reserved.
  *
  * This software component is licensed by ST under Ultimate Liberty license
  * SLA0044, the "License"; You may not use this file except in compliance with
  * the License. You may obtain a copy of the License at:
  *                             www.st.com/SLA0044
  *
  ******************************************************************************
  */
#include "wmc_data.h"
#include "ai_platform_interface.h"


AI_ALIGNED(32)
const ai_u64 s_wmc_weights_array_u64[ 1592 ] = {
  0xbc9fbccd3e19d6b0U, 0x38b1609c3c9a3070U, 0x3e3209dfbcf542c3U, 0x3d8cd67b3e9ce448U,
  0x3ef058ff3e51e223U, 0xbdbf0fe4be984c37U, 0xb911f2de3f35f52eU, 0xbe03531abf3b64a7U,
  0xbca39f903dac3002U, 0xbe16d4a5be2aced4U, 0x3e2ef1623e2322c8U, 0x3eb2e35a3e10c958U,
  0x3e3471943dc93bd2U, 0xbea921fe3d49cacbU, 0x3d72993c3d1857beU, 0xbc942833bdf3568eU,
  0xbf1ce2aabd61a823U, 0xbecbae3abf0e6973U, 0x3c3ca482bdc91608U, 0xbf0d632c3de1c7d3U,
  0xbeb50734beeed0dcU, 0xbe81c07a3eb1b85bU, 0xbe8df0c5bbaf6348U, 0x3e895aeebe8f85c0U,
  0xbd8325823b13d7ffU, 0x3ea522803f12f9e8U, 0xbe513abe3dcb8801U, 0xbee40549bece38e2U,
  0xbcc32601bed91cebU, 0xbdc5e4833e420969U, 0x3ecae5873e882461U, 0x3f4ddc0b3e9be333U,
  0x3ef1b35e3f10de9bU, 0xbeb2a9e33bbe11f2U, 0xbedd0755bee4341fU, 0xbedaf611be3b1c12U,
  0xbce5f94dbe79f5c1U, 0xbd38d1453e183598U, 0x3e4726533e425679U, 0x3e8d0be53deacbc5U,
  0xbec328023e77c294U, 0x3e78cc003ed29c1bU, 0x3f17b2b3be05cd6fU, 0x3eefa7b83f09991dU,
  0xbe47b9b73f0f1754U, 0xbee1c109be1051a4U, 0xbe27c7b0be075af0U, 0xbeb2fbe5bec5a39bU,
  0xbc3a8b59bdf8d7a6U, 0x3d68b1c7be598fc7U, 0xbe0b7ee3be222bf5U, 0xbe3ef768be8c25f5U,
  0x3ead6f42bea4c9f7U, 0x3ea20f163ec48069U, 0x3e528225bdb668c4U, 0xbe8be3ac3e0b93bbU,
  0xbdd7d55dbeb8b2a6U, 0x3e2fce09bda15a17U, 0xbeeca5f63e8d2230U, 0xbed120c4be806b31U,
  0x3f15ceb33d7b3f8dU, 0x3d9398e53efee0ccU, 0x3d6158703ed7274eU, 0xbe495366be307b95U,
  0xbe10263bbe39bee6U, 0xbd39508abea78161U, 0xbe0c347dbe33d81fU, 0xbe6c0c6dbdbc9731U,
  0xbe8056b6bddb2c70U, 0x3ded2350bd4dd683U, 0x3c0a8e11be8cfda0U, 0xbe4b41f1bd61f27eU,
  0xbe0ff5b1be7d20c7U, 0xbe7a088a3d2126b1U, 0xbe91695ebe057df1U, 0x3e66b1f03d211145U,
  0xbf1f42ccbe01bc3aU, 0x3d5f1552bda9d3c2U, 0x3da4f11d3e321905U, 0xbdd84a61be19188cU,
  0xbe21961fbdab6fadU, 0xbd24ef21be4ccc21U, 0x3d12c171bd2e2867U, 0xbdcf0129be36d3b8U,
  0x3d800564bd5afe0dU, 0x3d187585be5eb81cU, 0xbe57e66fbdc9851aU, 0xbd61d554be2c877dU,
  0xbd4b7957be16e2c2U, 0xbe1920ab3d47a0d8U, 0xbe26c9a43d175967U, 0x3d08218cbe015c69U,
  0xbd1e76fbbd45c955U, 0xbdec462dbdb092e7U, 0xbd81cc93bd82ed33U, 0x3c35f5ddbaf40580U,
  0xbcb35cc3bc805c5aU, 0xbda1b47ebd7c84fdU, 0xbdef48be3d5ec812U, 0xbca6c439bbcf90fcU,
  0x3d5b02a2bd131d35U, 0xbc2ab0d8be475460U, 0x3ce1bd80bd9912b4U, 0xbe0ca480bcf3e0e3U,
  0xbdd499803ca625beU, 0xbe3fc39fbe0f3a87U, 0xbdbdaa88be199e24U, 0xbe181c70bd3aa44aU,
  0xbd50cbfcbe2d8266U, 0x3b10727f3d887af7U, 0xbe2179a8bdc05417U, 0xbe009b6d3d7559bfU,
  0x3d841837bc04fe77U, 0xbdde8a63be4e40ecU, 0x3d75974fbd2b3969U, 0xbd980814bd1ebaccU,
  0x3d6df3ffbd80f6afU, 0xbe41e1b13d7e1e57U, 0xbd26a9583c0e2b9dU, 0xbd3460bcbda260ddU,
  0xbdbb1fdc3cc37ed7U, 0xbe56dfcebe004306U, 0x3d1be552bdec905fU, 0x3d1bd0a6be119dbaU,
  0xbdca7187bdd8b5f4U, 0x3d9bf2e2bd62c389U, 0xbe3a4d55bde94066U, 0xbe37c616bd0c9528U,
  0x3ccae6773d1b000eU, 0x3d2ae343bdc30e7bU, 0x3c8487ff3d468b24U, 0xbd21c867bdf0521cU,
  0x3ce3bef33d8b6d61U, 0xbc41443cbe05f81bU, 0xbc64618dbdd928c6U, 0x3d3746ec3d34e905U,
  0xbe3bdb51bde09c52U, 0xbdabe5d1be5a389aU, 0xbd8f064bbe41b4c8U, 0xbc1615d9be4d32cdU,
  0xbe028130be3e4f25U, 0xbdc6be8fbe3ade1cU, 0x3c161f333ca0e1e4U, 0xbe4a2060bdd7b011U,
  0xbdb27e4cbe016fdeU, 0xbe0a429abe021699U, 0xbcf926a1bdc40a38U, 0xbd80983bbe54fb86U,
  0xbe143c80be014845U, 0x3d490adc3d559b7cU, 0xbdad3bb5bdf81b1fU, 0xbe1b8baf3d3263d9U,
  0x3f556e153e272ac3U, 0xbe4a32fa3e8aa2aaU, 0xbd81f4753d8507beU, 0x3f077a12bed8454aU,
  0x3dbf38d8bdf67d68U, 0xbe623f8cbe3c3b04U, 0xbd26b417bdd3443aU, 0xbe3e2ba2bdffffecU,
  0x3e99e99dbdf1fd32U, 0xbe70923e3d13aee3U, 0x3e6a909ebe519ba8U, 0x3c5b95adbe70b03fU,
  0x3ddcb42bbc903093U, 0xbe90f7b9bdc53da8U, 0x3d07a5453db8f14fU, 0x3d0b691c3af3e55fU,
  0x3eefc2723e2f1f39U, 0xbec4eeb8bba6618cU, 0x3e8802bcbe0d186bU, 0x3ea33da93d6a9811U,
  0x3eda76f43df4730bU, 0xbe682788be0f2feaU, 0x3eed733b3d73ac41U, 0x3d495efdbdd510d8U,
  0x3df516b4be5fdb80U, 0x3ece6198bece9085U, 0xbe54cedb3e8b6ac3U, 0x3e81a94fbeaf9a9bU,
  0xbea38636be961905U, 0x3dd8feb33e0bd5c6U, 0xbe5ace9f3e6fe885U, 0x3e1c3e0c3e3767d3U,
  0x3e4d5684be509e99U, 0x3dc13c2cbeac4804U, 0xbb2aa7923e7dd611U, 0x3f0993aabed5dc6aU,
  0xbe5b490dbe9b6a13U, 0xbd8a8913ba5ed80bU, 0xbdfe4d283e999719U, 0x3e29ac133e5add30U,
  0xbd403ebabe4a8cb1U, 0xbda66917be91fbfeU, 0xbd9897343e4f8d0aU, 0x3ed1713cbf11a8adU,
  0xbe978ac8be7ea539U, 0xbd74538d3d3da4d6U, 0xbecef3f9bcb7246bU, 0x3e0c5407bbad93a6U,
  0xbe301dddbd306cbaU, 0xbe3407363e6d1718U, 0x3e9888403d362482U, 0xbf66f8bc3e967004U,
  0x3d739e613e168257U, 0xbddc47493e505d11U, 0x3f38e6143c131df4U, 0x3e84b9fd3e2d793cU,
  0x3e91a94fbec19ddcU, 0xbe588fb23d2a92b6U, 0xbe20193d3d82332bU, 0xbf12b1723e7ef77dU,
  0x3cd684ba3dd5ef93U, 0x3df3cbedbca83a5eU, 0x3ee917273e049e30U, 0x3e42fad53e05b4c5U,
  0x3ed261f93e410034U, 0xbe993c443ecc6c75U, 0x3ded45e73d3cb74fU, 0xbf68d47b3e954d34U,
  0x3dce556c3e6e2ffdU, 0x3c8b9c2e3dddb19fU, 0x3f0888fbbdb479dcU, 0x3e59fc843a232721U,
  0x3dce4991bd45ec7bU, 0x3db65b063db44301U, 0xbe0ea5ee3d03b55eU, 0x3cfb7065bc4b2c7eU,
  0x3d5e6177bdd7ed39U, 0xbccd8331be0c4aa8U, 0xbe05eaa3bc32f676U, 0xbe0682d8be191931U,
  0xbdada2bdbcc462b2U, 0x3caaa4623d31b071U, 0xbe0614363b32d880U, 0xbd7de46a3cc8e13eU,
  0x3d9d232bbbb9db04U, 0xbded965ebc9c183eU, 0xbd98d2b5bcda8a96U, 0x3de8834abe06bd85U,
  0x3c8ea41dbe048ff6U, 0x3d9f6ce0bdea1506U, 0xbcae9f8abd9a143aU, 0xbe15eecd3d007d6aU,
  0x3cb38ccebcda2819U, 0x3d8891d5be14074dU, 0xbd92fbd0bd832c89U, 0x3ce3711b3daef6bdU,
  0x3c012b693cdb894aU, 0xbd789564bda30cf6U, 0xbd7213aebde2bd6cU, 0xbd5022a6bdc5d014U,
  0x3b9fb0ff3c7e9308U, 0x3dbb505f3d99f3ffU, 0x3db6a762bd873d0dU, 0x3c9f200c3db19cd5U,
  0x3b01447abd858e45U, 0xbd8d52febd1e0494U, 0xbe06855b3d1258b5U, 0x3de76230bdbbd30fU,
  0xbe0b3a95bda333aaU, 0x3d796b103ddc832aU, 0xbd2f5ff1be2a31fdU, 0x3d182066be2d606dU,
  0x3b58a542be02bc96U, 0xbdecd279be1c3d2cU, 0xbdbf2f04bc80bb38U, 0xbda34773bdb74b56U,
  0xbd628754bcb2ede6U, 0x3dc6a72a3d4bfd75U, 0x3c231a81be3d733dU, 0xbc6465cf3da96c37U,
  0xbcca2c03bd139498U, 0x3dd5662abdb0b56fU, 0xbda1409abe04d724U, 0xbca3f4bf3da4e0aaU,
  0xbc16577c3cbf40e5U, 0x3dc2ef8dbc1cabd1U, 0xbe258935be0a1944U, 0xbd4917ffbd1aac4bU,
  0xbd7e52a5be41e96aU, 0xbce400dabda505c9U, 0xbdab1128bda474b6U, 0x3d51601e3da2f934U,
  0xbde58de2bdd8bb7fU, 0x3dec97c3bd0fb787U, 0xbca7a32e3b46fd32U, 0xbe36efe5be3b1510U,
  0xbe08206ebe29ee6aU, 0xbe4c124f3c766442U, 0xbe19c0b33de6e768U, 0x3d866ebbbc90da36U,
  0x3d1f6dc1be2d3ba8U, 0xbd4a25a23c5d3285U, 0xbc8a571d3d36d45fU, 0xbda20000bdad47d8U,
  0x3eb8af08bdb3b495U, 0x3de60b0fbd6a4b4fU, 0x3f0108583c794815U, 0x3dfc17b83e9dda5aU,
  0x3eaf5b5b3e946616U, 0x3ea472eb3b90bba0U, 0x3ded752c3d9bc754U, 0xbe1fa8dabe46e4a7U,
  0x3ebe469f3e655363U, 0xbdbd0c0a3d8d77cdU, 0x3e6e82453c644c8fU, 0x3ea0c4673e80232cU,
  0x3e1254a93dc4a9a7U, 0x3e0c97f03d780c23U, 0x3e2e57d53e1cf14eU, 0xbdd238453d43bcf3U,
  0x3eb57d553de484f0U, 0x3d341c4f3b1bb7a1U, 0x3eff14273e007bc2U, 0x3e0ec728bdcc159dU,
  0x3ed3f4f63d8552e1U, 0x3e8142f1bc19d988U, 0x3e06c1053e256983U, 0xbd75b6c3bc1db437U,
  0x3ebde0023d6bb070U, 0xbd8694f33e6b2c9bU, 0x3eab1086be4c344fU, 0x3e10ec53be31fdd8U,
  0x3e8506ca3e36029cU, 0x3d26345ebe01b81bU, 0x3e3c9bce3dabb893U, 0x3d8220f4bd415911U,
  0x3f04a4d33d5f96d0U, 0x3e0cb618bbac8168U, 0x3f30b7e93cf031deU, 0x3e5a3c00bd5e19f9U,
  0x3ebf65763debabb6U, 0x3d9bac74bddee3feU, 0x3d5377f3bc29974cU, 0xbd45ccbebdf3b5d7U,
  0x3f0110cb3d5b2796U, 0xbdaae67f3e288b79U, 0x3de187d73dfdff3dU, 0x3e65b0063dfd816aU,
  0xbe33c564be2c8b38U, 0xbb3664d93b8ab074U, 0x3e381849bc677f90U, 0xbc1b558b3d05d1b8U,
  0xbe38b246be10b256U, 0xbcc31575bd393716U, 0xbde6542d3e183239U, 0x3e31e192bd673babU,
  0xbe62d98abe274aaeU, 0xbe957c8cbd523a87U, 0xbe8bb07b3dd7aea1U, 0x3da999663e6c8e77U,
  0xbd9a58d6be18e7cbU, 0x3bb5f9debdbda432U, 0xbe2814ae3e11c63dU, 0x3e65d89fbdfd0f8fU,
  0xbefb09823d6acf36U, 0xbd870b663e4fc971U, 0xbe226fd3bb17a8edU, 0x3e60b7453dab6fe0U,
  0x3ce1936abd3e5e03U, 0x3d88f7283ca96e0fU, 0xbe07c048bba1c21aU, 0x3e2d3a38be6c2a72U,
  0xbeb2534dbd4a7250U, 0xbe98e65f3e59689eU, 0xbe54e5893da6a5daU, 0x3d198a413e2af8ccU,
  0x3b762317bd5a2aefU, 0xbe596de2be593b02U, 0xbe551b4ebc69306dU, 0x3c360e58be596551U,
  0xbe67f700bc63b102U, 0xbe58a6023ca83c64U, 0xbd36fe013d511c57U, 0xbd47b9ae3c7638cbU,
  0xbe283128bde26186U, 0xbd70177c3d760ce4U, 0xbd447fd1bcb67e15U, 0x39d8dc80be50b447U,
  0x3d79a5d6bdc4f3ecU, 0xbe515743be45910fU, 0xbe052febbde39c86U, 0xbd98a91cbe029c18U,
  0xbb91ea0cbe5bba26U, 0xbe0af512be307249U, 0xbca54641bd80ded9U, 0xbe4083d9be39ba65U,
  0x3d050c4abe4f11f7U, 0xbe19b8f8be1d23aeU, 0xbe59c8ba3cf56de0U, 0x3d0a5f53be290bb1U,
  0x3cd2bbcfbe37cd7aU, 0x3ca9ab76be1d5d10U, 0xbe0196ca3c5037ecU, 0xbdcbc2b4be4f1fd2U,
  0x3ca9c0c43d3760e7U, 0xbda5bb74bd8c85b6U, 0xbdaf7da2bde5a3bdU, 0x3c9bdab9be41621aU,
  0x3d6e6379bdb99f61U, 0xbe11bda5bd84f962U, 0xbe090485bdccd6bbU, 0xbd3cfc2f3c4bd632U,
  0xbdf14dff3d60b01dU, 0xbd7c220bbe22aa1dU, 0xbd072cd5bdb535c1U, 0x3d2eb28abdd8ce07U,
  0xbd37120abe64fec9U, 0xbe2c971cbcebea06U, 0x3d35b639bd020db9U, 0xbdb60969be2d26f6U,
  0xbd9f5b77be13f26bU, 0xbe2e414abe483038U, 0xbc37dcab3d35987dU, 0xbdb1c2623cc7ade1U,
  0x3d8177c23d5fe10eU, 0xbe568bb43c9e0a14U, 0xbde2af5abdf7ad83U, 0x3d40af263d4c36ffU,
  0xbe4fb2d5be5368b1U, 0x3d2e069ebd9236f7U, 0xbdf11d21be05e97aU, 0xbe460079be3509c2U,
  0xbe4c790c3c80b5c8U, 0x3c8626b3bd0e78f9U, 0xbe5cf036bd15fe32U, 0x3d128d97be0afa7cU,
  0xbd218542bb6859d8U, 0x3c5b165ebdd7b2d6U, 0xbe04ee1b3d5f388cU, 0xbd546dabbd1aa0b5U,
  0xbcad1d48bdf71d91U, 0x3dc303323d31c5a7U, 0xbe0ac288be02a1adU, 0xbe1a8306bd5135cfU,
  0xbe1ec1e3bdf11281U, 0xbe21f697be13076dU, 0x3d16f570bb9f6d58U, 0xbe37610dbd4603cbU,
  0x3f14162d3e77b790U, 0xbe8ec80d3e4f4523U, 0x3e9e5e0e3c54b516U, 0xbe0d22ab3e555707U,
  0x3e83266e3e7c0b10U, 0xbd932f41bd35dbd3U, 0x3f114a20be252241U, 0xbd51831cbdcc6918U,
  0x3e47ffcd3e288c3bU, 0xbe1ebc83bdca28c3U, 0x3eb29721be2d58b9U, 0xbe81dad03e898c85U,
  0x3e8839f1bc51c374U, 0xbd823a0abd0e88e6U, 0x3e22138bbe12b455U, 0x3ce869013d199b43U,
  0x3d0934183cbd8ea8U, 0xbe83f90b3c8505b6U, 0x3e2c4822be4a367aU, 0xbd6ff3e8bd5c8d4cU,
  0x3ed5e339bdebfbfdU, 0xbe08c23ebcb951e1U, 0x3ebb8353bd22e48cU, 0xbda45a333beb313aU,
  0x3de27d4bbe178e75U, 0x3f41b08dbe8989a0U, 0xbe1f77d93e38ace5U, 0x3f00b5b9bf167739U,
  0xbbb03c7cbe209202U, 0xbe90a25d3ea60023U, 0xbdf5b58e3e4974b7U, 0xbc7ab24f3ea60ca1U,
  0x3eae39643dfb7826U, 0x3e4ddabfbe616833U, 0xbeb12c023e82db94U, 0x3f17f58cbe2c4822U,
  0xbee293e8be52337cU, 0x3d47aeedbd2ed9f9U, 0x3c1dfca13e7a9baeU, 0xbd46de813df73e84U,
  0x3de88b02be8cb05dU, 0x3e23a60cbe7b7c9aU, 0xbddcc2913e529ccbU, 0x3f0952d6be046fa9U,
  0xbf0e262dbecac9bfU, 0x3e5719ef3d0dbfcfU, 0xbe6e5ebbbdf72048U, 0x3b36f3a8bd890197U,
  0x3d76742fbe316dc1U, 0xbe2b025ebd5ef17eU, 0x3e722d193e363b1fU, 0xbf1c6e083e902171U,
  0xbea5ea1fbe2ca4daU, 0x3c0b81073e641c66U, 0x3f34ca663d58056aU, 0x3e05eef83e5c8fa8U,
  0x3e750f29bef8d635U, 0xbdad3cd2be5927ecU, 0x3d9bd2e13d936c3bU, 0xbe52fccd3e195481U,
  0xbeea81f0beb5d3b9U, 0xbe5ee69a3e9aae29U, 0x3e82b61e3d8b72b4U, 0x3e5a78833e2253e1U,
  0x3e1263d93efa4054U, 0xbde14e343e0de75aU, 0x3dc2e5dd3c82e423U, 0xbebe3a30be853fb8U,
  0x3d5cf8643d38fd60U, 0xbebb456f3d94c8beU, 0x3ec96296bde3ca59U, 0x3e08e5643e474de3U,
  0xbdff1fb9bd3db137U, 0x3c9dec41bdcddbb8U, 0xbe3d1153be0cbab1U, 0xbe2e62923c1bd788U,
  0xbcbe8b3cbcfe789eU, 0xbdd0f407bce93515U, 0x3cc99fc4be416c15U, 0x3d884d2abdeef367U,
  0x3cd161ccbd4eab98U, 0xbcac41a8be539ef0U, 0x3c84a5f2bc3a35cdU, 0x3d3449ad3d6153daU,
  0xbd1239b1bddf19d6U, 0xbd042d47bd71834bU, 0xbac227f13c956ac5U, 0xbe2d2d88bd2f47b4U,
  0xbc01d3eebe10beb7U, 0x3d6813a03d0f7f40U, 0xbdf7b04abe2f6613U, 0xbe5b11723b9f909bU,
  0xbe203f68bdeda1cbU, 0xbe14d563bd9e6f37U, 0xbd02e39bbd32a3b6U, 0xbcaca9a33dbc1db3U,
  0x3d909244bceb9961U, 0x3d3daafbbd118f62U, 0x3c8e1345bdc3a41aU, 0xbd9b4211bcf7c901U,
  0xbe178195bd76daf0U, 0xbe18dc8abd0fccbaU, 0xbe4ddf043d81a491U, 0xbd2893ebbdc98330U,
  0xbd3be58fbd87da13U, 0xbdd62984be4fcbfdU, 0x3d89d737be26530fU, 0xbe5778dabe10c3baU,
  0x3d8106a33cb215ceU, 0xbd7312fcba985910U, 0x3cae68a3bd5f63daU, 0xbdc6e009be5b2defU,
  0xbe499e5dbcfe2b4cU, 0x3d998a9b3d6f4521U, 0xbdf99065bb411bffU, 0xbe25006b3d90ceb4U,
  0xbd2f11b13c3390ffU, 0xbcd26e5abdbb72e8U, 0xbdeaa24bbdf0e3ceU, 0xbe14b29ebdcf2d31U,
  0xbe200efdbc1e9926U, 0xbe54f822be0a1430U, 0x3d3d4f56bcaefebfU, 0xbdfb4771bd358b2aU,
  0x3bb2d059be4fc522U, 0x3d4ca2d2bd8b1ecdU, 0x3cfef291bd4bba8fU, 0xbe2f926c3d560fd0U,
  0xbdc2d001bda7be0bU, 0x3c88b03fbe0ea993U, 0x3ccc16e23c4b2128U, 0x3c917c323d563ff3U,
  0xbe1ab0ecbe328911U, 0xbe327c99babc62c3U, 0x3cbb04623d2a8682U, 0xbddcff0d3d1afb95U,
  0x3d5dfa2f3ce7d9ddU, 0xbd8ea1a6bdba3232U, 0xbd01f4f8be0dbef8U, 0xbdcbc93cbd9869e3U,
  0x3bda47fa3d8504feU, 0xbe13fb2fbd2552e7U, 0xbe086b1dbe2dc157U, 0xb8c320a63d8b46c6U,
  0x3d1732943d525623U, 0xbd9bffa1be4cade8U, 0xbe4a537fbdc249a4U, 0xbe1a9c08bd3d6fc0U,
  0xbda2c20dbdaf84f3U, 0xbdd5f2b3bd30a8b9U, 0xbe456576bd109ceeU, 0xbe2995453da3b749U,
  0xbcdce5873cd0a679U, 0xbdead0f1bdccb24dU, 0x3cee8a7cbcd2b4b6U, 0xbe2ee183bd342cc9U,
  0xbdd0167fbd748040U, 0xbe48cb623d90454bU, 0xbde50340bdc2dedaU, 0xbce153d8bdcd4b4cU,
  0xbe686520be502a26U, 0xbd88c19abe224d31U, 0xbde638bdbe415ad3U, 0xbd0b380abda941daU,
  0x3b5617a5bdb3ac8dU, 0xbc51e723bd094f86U, 0x3d332a93be1467f1U, 0x3d2b2dd5bcf8265cU,
  0x3c4ae6663d6335efU, 0xba562151bb673193U, 0x3cb212f8be3a3c87U, 0xbe0105d43c9d8c41U,
  0x3d9fe9edbb7d2401U, 0x3cc42c21be18635cU, 0x3d944a45bd7e61f5U, 0xbd7249b7bd69a012U,
  0xbe32a590be56c9afU, 0xbcf332a53cda26bfU, 0xbe239f033d828a17U, 0xbd2748373da52b4fU,
  0xbd869e60be00895cU, 0x3d16f635be2d68e5U, 0xbb844f8fbdaa6b14U, 0x3d9d7116be34d4f8U,
  0xbe1fe77abaebe6c8U, 0x3d44738abdcac3c6U, 0xbd4ac267bdd968ebU, 0xbcc57a103d0ea93aU,
  0xbd222848be4d3109U, 0xbe094a58be1bdc4aU, 0x3d81390cbdd52ea2U, 0xbe52b3e4be0f203dU,
  0xbce0eae4bd870c4aU, 0xbda5a7d43d175863U, 0xbe0558c03da7115aU, 0xbcc75e28be1ab938U,
  0xbe3a1dc73d0df585U, 0xbbe3695cbe085ca1U, 0xbe4ad5843c25e419U, 0xbe19c951bda15fceU,
  0x3da1d86b3d2dc6ecU, 0x3d2015c0bdcb9825U, 0xbb92385dbe330c40U, 0xbd8a5224be25a276U,
  0x3d1aad38bdc0836cU, 0xbe56d59f3d4253e3U, 0x3c63fe6ebdca1cccU, 0xbcdcd8043dac471bU,
  0x3d8bb2e0be2fe0a5U, 0x3d87bb74bda4a195U, 0xbe0966c9bd7e8236U, 0x3d3288023d5cf2e2U,
  0xbe29806dbe139811U, 0x3d24af153d87075cU, 0xbca3f42cbdc40563U, 0xbe340ab7bd30792eU,
  0xbe77db50bd16e7abU, 0xbe0fb0c9bace649fU, 0xbd8b30fdbe5e9002U, 0x3d8c44d8bcf8d974U,
  0xbdad775b3dbee4b1U, 0xbc8cdadfbdf92f1eU, 0xbe8899cbbe04954aU, 0x3db8e92bbe451e75U,
  0xbe5f81613e09531dU, 0x3e4201e93e441c62U, 0xbe2b0a683c3b3f76U, 0xbe4c59423e2e2e18U,
  0xbcf51220bcd9189eU, 0xbc1abef7be1dc939U, 0xbc280b7abd16eb91U, 0x3dc19925bda24d9bU,
  0xbe734130bdf19d00U, 0x3e2469713dbde131U, 0x3e147b9bbd8b9354U, 0xbe7a428e3e08e2deU,
  0x3db19d203d2b8f8fU, 0x3d556fd1bd854e48U, 0x3d0fd9f5beb9c962U, 0x3cc22983bd9d7a5dU,
  0x3bab32ae3cbf806fU, 0x3ea960423e2e7963U, 0x3e653ac33c2fdc43U, 0xbe4057453d8affa8U,
  0x3d5e7c8a3bfc64f6U, 0x3de661123e1908bbU, 0x3e33a6a6be07e19dU, 0x3d88b51ebe03e062U,
  0x3e08f7a73e182224U, 0x3d11c1b4bd5317fbU, 0x3db40e25be1e85f0U, 0xbe0202d33bb83781U,
  0x3d4dbe74bc91e551U, 0xbcc0adb1bdc213d9U, 0xbb228986be158dd1U, 0x3d3a7d15bda48af5U,
  0xbe129ec4bb19fc94U, 0xbd13fee03d9d56abU, 0xbc2073043d973674U, 0xbdd7bde23db0523bU,
  0x3d1352f6bd39a520U, 0xbc8262b23e0d7fa4U, 0xbe67dd47be4eae19U, 0xbe37104c3d202fbeU,
  0x3e23051e3dfb3b5dU, 0xbc61b37c3e15ef92U, 0x3e01b00f3d4da2b1U, 0xbca44e973dc45d5eU,
  0x3e3d8e013e5d9f5aU, 0x38e579e0bd50e26dU, 0xbd9607e63dedefc7U, 0xbe213c17be87258bU,
  0xbda412b33e152d00U, 0x3db96a8c3e13c11aU, 0x3e4991f03dd71089U, 0x3e78c77c3db97324U,
  0x3e36c6673d32cf08U, 0x3d61771fbd57cd34U, 0x3e1c943fbdead91cU, 0xbe36cfdfbcd88177U,
  0xbce020b93e2ba65cU, 0xbe6e70d8bd2b0611U, 0x3d9e16dfbdc4ce8fU, 0x3dbf77393e1ed5f3U,
  0x3dc03ff53ddbc8d0U, 0x3d13ee25be424941U, 0x3b6bab783d4e5d19U, 0xbe06ae71be20d7a3U,
  0x3d41e51dbd102298U, 0xbcff90fabdacb927U, 0xbd2ea3323dee53ebU, 0xbe1675a1bdba4d91U,
  0xbe363858bd4cabe4U, 0x3db37d6c3ce6ce7fU, 0x3c3d226dbce70de2U, 0xbe1fa7e23dded7beU,
  0x3d4a61b53d1f29f8U, 0x3ce3b2c5bd755fb5U, 0xbc3c23283cae2a13U, 0xbbd5f732bdda006fU,
  0xbd4ebc0fbdc4eee1U, 0xbe427e413dbdf1d5U, 0x3cf22b0cbdb0c170U, 0xbce37f3f3dbaa757U,
  0xbe4e0e58be42bbecU, 0x3d4e5760bd04b167U, 0xbe37f4463d4bcbc2U, 0xbdd28ddbbd89850eU,
  0xbcc067c2bc7486b5U, 0xbe1fcc79be0971d6U, 0xbd8fe065ba75f0d7U, 0x3d7a59433d4bfe20U,
  0xbdd33ad9bdc31244U, 0xbda864cabdd7bf18U, 0xbd9f51ae3dbeaec1U, 0xbd250ef3bd5ef3e1U,
  0xbde1dff43cebcfdaU, 0xbd409b20bdd1df9aU, 0xbc861f8b3d859cb7U, 0x3d22c49cbdd63076U,
  0x3d9c71d4bd9c019fU, 0xbe294c49be1ba4faU, 0xba8b68893d59a319U, 0xbe301e823cf1eb71U,
  0xbe4564eebd926ae7U, 0xbdba1b583da234daU, 0x3d3266abbc56ec42U, 0x3d58c565bd141a8dU,
  0xbd518055bdda5c7fU, 0x3c809310bd5066b9U, 0xbe05db96be1c1e9bU, 0xbdcfdb113d4d87eaU,
  0xbbd20756be3c2856U, 0x3daba6803d9d9007U, 0xbdb2a906bd4f7b25U, 0xbd5678e4bc8e9589U,
  0xbcf1ffa6be412a2cU, 0xbb73d25ebe396fe8U, 0x3d729c92be0fa4c5U, 0xbdd10bf6be396eafU,
  0xbdada4753d38af38U, 0xbddee7a6bd99a386U, 0xbe3b00ccbdd08f37U, 0xbe1c13b8be19b5acU,
  0x3c7519353ccb0415U, 0xbe1bac51be046bbfU, 0x3da573a33e00d9aeU, 0xbe36da68be3c3262U,
  0x3d7ea280bd9356f3U, 0xbdf6ec17bd8b1d5aU, 0xbe190a3f3d61b7feU, 0x3da94c4fbbe56347U,
  0xbe486bc83cdf0d77U, 0xbe443442be099b68U, 0x3ced8f87be2c8237U, 0xbd9d980fbded9ec8U,
  0x3cb086b33d34504dU, 0xbd5eeba7bd9ea39aU, 0xbd3edc9bbd947c12U, 0x3d6620023c3783a9U,
  0xbe248edfbda413c6U, 0x3bbded87be1ced6cU, 0xbd320a58bda0b09cU, 0x3ccf4b2cbdfb0635U,
  0x3d436fb2be082a3aU, 0x3d2029393d2db089U, 0x3d2386adbe6a4549U, 0x3d1511f0be69d7cdU,
  0x3d1eecec3c85d7abU, 0xbd75d9a13d152ba2U, 0xbdbaf033bcf8a7bdU, 0xbd1dd511be2d2e5aU,
  0x3cfdefd5bd526dfbU, 0x3b3492cbbde5cc81U, 0x3ce09d61bd86e1a0U, 0xbe4ede65bcb53391U,
  0xbdd810623da82a79U, 0xbc20d85ebbf5c960U, 0xbe0860a4bdbe1c58U, 0xbe412eae3d4b9681U,
  0xbe05f3ee3bf4e68bU, 0xbc35c861bd388407U, 0x3cef9f79be504f7dU, 0xbd300c13bd3b0cabU,
  0x3d161b30be15eb71U, 0xbe374e54bd815e78U, 0x3d6366d7bd75bc12U, 0xbdae03ecbe37be4cU,
  0x3ca5965a3d9dada5U, 0xbe11f940bda1b402U, 0xbd9b94433d215c5dU, 0x3c7c366abd8ccfe6U,
  0x3d92f334bd87d5f8U, 0xbe4e57edbd561d2aU, 0xbe4062443d5a0e23U, 0xbe39bd283d77b515U,
  0xbe52f812be40d19eU, 0x3d4128aebe690ea7U, 0xbdfc7cf1be32750cU, 0xbe116600be028453U,
  0xbd191bd6be070208U, 0xbd159209bc435c2bU, 0xbc7bb233bdfbb337U, 0x3d787f313cc0f68cU,
  0xbd2d632bbdeedbacU, 0xbdf5d41bbd48a82aU, 0xbda09ce0bda4683bU, 0xbc5c563fbcf9fa17U,
  0xbc098e5fbe34d823U, 0xbded3d0a3c9670f7U, 0x3d54922fbdfb0d0fU, 0x3db127343c912bb3U,
  0x3d2a85dc3d28759dU, 0x3c8887f0be60c2bdU, 0xbd85e6e63cfb0f95U, 0xbdb252b3bd2ab5c1U,
  0xbd922a65be366913U, 0x3cb155eabd8fd711U, 0xbd9e3591bce8b877U, 0xbe03f40abd139f8dU,
  0x3cba0215be426105U, 0xbe14021abe219b0fU, 0xbda74effbe61604bU, 0xbdb31545bde924b6U,
  0xbe02fe2c3cf73490U, 0xbba26bb5be31bf2aU, 0xbd10d216bd7646d9U, 0xbdc0cf28bdf0070aU,
  0xbe13bababe08e405U, 0xbda161d4bdf46194U, 0xbdda1abb3bf653d4U, 0xbe51d5063d28fd53U,
  0xbda6992abe3d8ce1U, 0xbe0d57ca3d88ad5aU, 0x3d2389e7bd141f30U, 0x3d345cb23cafa025U,
  0xbdc4e22bbe355714U, 0x3db4fe69bc9c653eU, 0x3d77e008bc0b2b1aU, 0xbb2c2c123d7fc479U,
  0xbe17a6883e143f8aU, 0xbe3141863dc77a7eU, 0x3df97548bdefeb2bU, 0xbe2d3ad43d83650bU,
  0xbd581671bd95ec9bU, 0x3cacc8fbbe4d2108U, 0xbc8cab803d113e3fU, 0xbc7ba9f6bd8f282dU,
  0xbc9d5bb83bff606fU, 0xbde816efbdc58519U, 0x3c9cb7c5bd7223cdU, 0xbe729a693e041073U,
  0xbdb24be33d0d91c3U, 0xbcfe75053da7974dU, 0xbd869f3a3d9b7c6bU, 0xbd96f224bd8d151dU,
  0xbd51f52c3d9c54b5U, 0x3ce5ef8fbd5393f5U, 0xbdf94ac6bdb8c8feU, 0x3dd3de393dd3d2ebU,
  0x3d84e0303c037081U, 0x3d6e352fbe245f2eU, 0xbe204d253c62a0daU, 0x3cfa4519baea0769U,
  0xbd719ca8bc2dfd27U, 0x3d6ac6e1bd777365U, 0xbdaddf3abe34aaa2U, 0x3d9963723d9761afU,
  0x3c5c1ac8be153a2fU, 0xbdab8afc3ccca854U, 0xbe39efd4bdb1d9cdU, 0xbe1022f5be21266fU,
  0xbdfca3abbdc39326U, 0xbe015d78bb8987e7U, 0xbd600c583d7f4a91U, 0xbe344c343d4ffb66U,
  0xbe0c794c3d9a941bU, 0x3b68c7773caa6a79U, 0xbe4f46923d8105c9U, 0x3d841571be68b449U,
  0xbd654681b9a26e71U, 0x3ccd4f76bd877ef8U, 0x3db7a25bbc88afe1U, 0x3c5f766e3da45427U,
  0x3dc5aa58bc2fb1bcU, 0xbdd6afe0be1f4fb6U, 0xbe5167b5bd605095U, 0xbe5ac0aebd5aa19fU,
  0xbdce34723d692456U, 0xbe24e87dbda493cdU, 0xbdb65e1abe1cb910U, 0xbd02fb75be0fd8dcU,
  0x3dc406da3dc3bd7dU, 0xbd1a9d04be2c187dU, 0xbce2cf42bdf19637U, 0xbced6c22bd40ab96U,
  0xbdb9f5c0bdb2c0ddU, 0xbd2c2682be3a613aU, 0xbe258107bd3e28fdU, 0x3d9d5a1ebd6485cdU,
  0xbe36fe06bd11451aU, 0x3cea862cbdc71fb8U, 0xbe0ecbab3d5342c5U, 0xbe35b469bcf29637U,
  0xbdc434c83dcad28dU, 0xbd40d8e3bde5a414U, 0xbe0cfa223ce969deU, 0xbd44b969bcbac4b2U,
  0xbe3d730f3b81610aU, 0x3d350540bd5d5b83U, 0xbdc7afbebd71ea4cU, 0xbe0685443dbc7db7U,
  0xbcfe0c5dbd37f93bU, 0xbd73265f3dc9f1feU, 0x3cb0bb3bbd57fab1U, 0xbdf13e12be397e26U,
  0xbe256bef3db69e9bU, 0xbe2b98313be083dbU, 0xbe0e6ed4bc234e78U, 0x3c9fd9ecbd3fdf02U,
  0xbdb6d294be451630U, 0x3d28a2803d89744cU, 0xbd2b5832be800fd4U, 0x3e2fc7e4bdf3f633U,
  0xbe59c5d6be091826U, 0xbe272dfe3cecbe52U, 0xbe3340413c19da3eU, 0xbd8a2d00bdec45bfU,
  0x3d60e1b1bd42e236U, 0xbe85d4c6bdd96376U, 0x3de455dfbc9e0754U, 0x3e436335bc14cfafU,
  0xbca5bb7fbe527b02U, 0xbe24c353bdd8c299U, 0xbe0530dfbe251f96U, 0xbe1baa77be5ff134U,
  0xbd14447d3deacedeU, 0x39cae142bd81f70cU, 0xbd3be54cbd0709a6U, 0xbdef8d113b97607dU,
  0x3d985f3b3de3236aU, 0xbcc58339bdbb8de2U, 0xbc92d3cebe185cedU, 0x3dba642cbd8cf443U,
  0x3e10b6333c4564bdU, 0x3a6041f9bd56ae64U, 0xbe4eef58be0a7ee5U, 0x3e016b0cbdc72d1dU,
  0x3d825d0ebe822e56U, 0xbc70fe09be0af20bU, 0x3bdd00a6be738ae8U, 0xbd785a18bd97f9e8U,
  0xbcd12b99bdfc749aU, 0x3db700243d6ab329U, 0x3d894368bca585edU, 0x3dc63ee03e51d4daU,
  0xbd9d8594bc22ee19U, 0xbdf037fcbd8dfb9dU, 0x3d0ec40dbdbf1ba0U, 0xbdffeddbbdbf1676U,
  0xbccbcc413d98873cU, 0xbde73ad13e58784dU, 0x3d63ca60be3ceb4bU, 0xbd809bf1be1f77edU,
  0xbe08e3803e45aa94U, 0xbe3da69bbd5191a8U, 0xbdac2b17be20ac15U, 0x3d8c0a12be33a027U,
  0x3d647b1fbe430c91U, 0xbd896bb7bd9a78fbU, 0xbe140eaebddd991eU, 0x3d9f5caebd706451U,
  0x3d5827d3be29856eU, 0xbd0dbc8dbe29c668U, 0x3e18eb42be23f702U, 0xbcc4e950bb59e441U,
  0x3c86f5f1bc8764baU, 0xbd10ac9cbe0b15daU, 0xbd59469c3da78da5U, 0xbda1609dbe0853fbU,
  0xbcd40235bdee7095U, 0xbd7110c7bddad5f6U, 0x3da885ebbe18133cU, 0xbcf22cfabdeaa96fU,
  0x3d891e63be219939U, 0xbdedf088bc9d829bU, 0xbe00ff16bdcdf5dfU, 0xbe0fe509bd6d080aU,
  0xbe0cc60abd6eb5b8U, 0xbe16c46fbd1c4324U, 0x3c862f2b3d3967baU, 0xbacbce0dbd318695U,
  0xbd8fee8cbe2a432dU, 0x3da48e923ce9f016U, 0xbd0d8e913c7eac28U, 0xbe15d1c0be234e8aU,
  0xbc63692e3c9f7dc7U, 0xbe32cc83be215032U, 0xbbcd8672bdafcde5U, 0xbdaaa2c43dadb458U,
  0xbcdb507d3c52f9bdU, 0xbd7f12fcbd8e7f92U, 0xbcb4b66ebd8c9d1aU, 0xbdbb6543bcc05b23U,
  0x3c2a405bbdea5281U, 0xbe08d198be24a712U, 0x3c9dd38dbc4186f9U, 0xbe2195ad3d626262U,
  0x3d3dd405bde4a73bU, 0xb96c16b9be1e4284U, 0x3da93289be1e286cU, 0xbd914d593d8e7e23U,
  0xbd9321e1be119a83U, 0xbe1e14dabd4ab044U, 0xbdad75ccbd822f7eU, 0xbdc7a316bdf64396U,
  0x3d13ff92bddca03cU, 0x3d8893bebd0202e5U, 0x3ca66305bdf88743U, 0xbe2bfdd53e330ceeU,
  0xbd92af90be15dfb2U, 0xbe450a67bdbc9b09U, 0xbe16d007be03c474U, 0xbd9f223e3d88e18cU,
  0xbd7824343cd79940U, 0xbe2f23b53d2e5140U, 0xbe265960be4f7c88U, 0x3da52adcbd81bddaU,
  0xbc8f53883cc52732U, 0xbdd5a599bdab1871U, 0x3d0f90eebd9c79ccU, 0xbdbc418c3cea18f3U,
  0xbd127e87be058690U, 0xbdd9e7febe29032dU, 0xbe12a8c83d5e8f73U, 0xbd6304a2be4db6d5U,
  0xbe01599abd7b5aafU, 0xbe4acf03bd1b22a5U, 0x3c328d7dbe3d124cU, 0xbe22657ebe1deb1dU,
  0xbe050ef33dbfa0b3U, 0xbe3f7dd5be32fe61U, 0xbe4899ba3cc204e6U, 0xbc0fb018be131343U,
  0xbe28030c3e13b693U, 0x3d0a2e25bd1da7e1U, 0xbe0e83c7bc000f42U, 0x3dad2ec5bda0976aU,
  0x3dc12354bf3e4a49U, 0x3ebca6c9bcf005a5U, 0xbd8863eabc851858U, 0xbf260f4c3eca7353U,
  0xbf30f379be49c8e7U, 0xbe1a67e53e7ff7eaU, 0x3eb96516bb8e4e56U, 0x3e440e583e34ae05U,
  0xbe0a6619be654beeU, 0x3d46a98abddda1cdU, 0xbda3230c3d2799bfU, 0xbf3be9abbe5f73a2U,
  0xbef825e6bed199e1U, 0xbef44d033dca28deU, 0x3e894c13be608066U, 0x3e8df0fc3cc8c84fU,
  0xbf0bfc863f4c693aU, 0x3e38117cbc592524U, 0xbec17ac1bd9a9fd8U, 0xbf34d7d4bdf0c8dbU,
  0xbee701ff3dd8ed30U, 0xbee9fa553d888122U, 0x3d442f50be9aa131U, 0x3dbbce713e5c5131U,
  0xbf16214abebf9a8cU, 0xbd6cc4e7be2c9c88U, 0xbf079d093e450a58U, 0xbefe9b603e838c19U,
  0xbee3afcfbcef4b2fU, 0x3ef891e73e350caeU, 0xbd3e059e3f020281U, 0xbd6e08ea3d467c13U,
  0xbeec9408bd52ee64U, 0x3ca63e8d3e20a32eU, 0xbef654cc3e039432U, 0xbf1ecedf3e809c93U,
  0xbdfe14253d3f6e4eU, 0x3ebd71ff3d9526f0U, 0x3e37214f3ee76d82U, 0x3c1faf243de96c72U,
  0xbefddb1b3e666850U, 0xbd9523d83e64d3feU, 0xbf1d91c03e580bf5U, 0xbdcb6b5c3eeb4df9U,
  0x3f26715a3d956a28U, 0x3ef3bf913dcac513U, 0x3eae6bf73dc5cadfU, 0xbd8371253db9f7b4U,
  0xbeb16fa9bd865367U, 0xbb9662353df23602U, 0x3ead4feabe0a4edcU, 0x3eb16c64bed7e95cU,
  0x3e7c3fc33dfdcae4U, 0xbeb119f4be2cf84bU, 0xbe131864bc9d4eeaU, 0xbdd7b4eb3d27c0d4U,
  0x3ee0902b3da5e89dU, 0x3d7affa83ef3a308U, 0x3e97c84bbe51a3e9U, 0x3eee2d09be7be4caU,
  0x3ef004143db2a65dU, 0xbceb6a03be4a7cc6U, 0xbe0093133df211f2U, 0xbb233d7bbe157315U,
  0x3f40032d3d31a17cU, 0xbe16ab5b3eca1b22U, 0x3e9f0a8dbdd02085U, 0x3e8e4088becd0df2U,
  0x3eb2c89f3d8899a9U, 0x3d8c5f943d8d009eU, 0xbe6d6990bd954599U, 0x3d307bcd3dc34680U,
  0x3d4eb932be8ff0d6U, 0xbecb8f0bbd481f0dU, 0x3c65fae5bf0c2bd2U, 0xbf874066beb77113U,
  0xbe17e179bed0d20eU, 0xbf1ec8873cf90318U, 0xbd329cf0bf43248aU, 0x3e31e1cfbd29d2b6U,
  0x3e0ceffcbe8fefb8U, 0x3ca714803c8cdb04U, 0x3d9551ecbd0c796cU, 0xbf1503cd3daf6ae2U,
  0xba933010be991a40U, 0xbdddac683cf0ea83U, 0x3e2407a8be02965bU, 0xb9fa3a973e648586U,
  0xbe084f90becda8e0U, 0x3e45ee223e66ba2eU, 0xbdc6ef0fbd9fd557U, 0x3d0df800bda03d1aU,
  0xbe938578bda0ab52U, 0xbecc217cbd8c0c0eU, 0xbed155e23d2e394eU, 0xbe0c7c68be17673eU,
  0xbed8332abdf1c47fU, 0xbdcb08203f04d88dU, 0x3ec524283e97a99aU, 0xbe7c5f99be93e64eU,
  0x3e8ecb2d3e9125bcU, 0x3e3cbd6f3e22975eU, 0x3f19f8993f3cf24aU, 0xbd2dc25f3ea6f3d9U,
  0xbc95c491be63a805U, 0x3e85d2c13e77fb52U, 0x3e00879d3db04839U, 0xbea3fb33bd11d0b8U,
  0x3e562b00bdbf823aU, 0x3e927f8e3d284ea2U, 0x3f313c9a3f2e698bU, 0x3d8bad6cbdeeba0fU,
  0xbd881c35bb2eadb7U, 0xbd3962da3eeb4f4cU, 0x3ae284343c3cd73fU, 0x3dae99373e8cbf66U,
  0x3d46cc2e3e33e5d3U, 0x3d19779d3d86ae40U, 0x3ed9cf043f1f2833U, 0xbd477052be2afa55U,
  0x3de3c0b0be738c97U, 0xbeb472c03cb4bce8U, 0xbdbefad53e515edaU, 0x3d9205603cf3a86aU,
  0x3eb5151e3dd33681U, 0xbd7e68b0be7d6f91U, 0xbd6a6a363e66bf4fU, 0xbcbf6651be7b2732U,
  0xbe2aa9cfbe796875U, 0xbe323a48be428d73U, 0xbefc8c42bea13274U, 0x3e288d48bed6218fU,
  0xbea35312be2765b3U, 0xbec38275be021d68U, 0xbed7dcbd3ec98ea6U, 0xbe9d2345be1ab740U,
  0xbd6c3002bed3d2b1U, 0xbed47d833d38b59dU, 0xbe728b27beb1bba0U, 0x3f00b1b23dfde148U,
  0xbdfff756be381193U, 0x3d66c841bca9ac19U, 0xbd4254b33eb4f818U, 0xbdbcd672be2a022dU,
  0xbd26a822bda4ea46U, 0x3d7ef9fbbc9ebfefU, 0xbe0a4760bdabb2cdU, 0xbda46c10bd8c6fb8U,
  0xbd988832bc8a8839U, 0xbcfe7932bda13e75U, 0xbd704ba4bda0647dU, 0x3e4979a6bd48bc25U,
  0xbf21d558bf3fd4b3U, 0xbea1167dbee18145U, 0xbdee8260be40e677U, 0x3ccb4b05bd2648c5U,
  0x3e350f0c3dcad264U, 0x3ece742b3e94904fU, 0x3f5275433f080d7aU, 0x3f7bc30d3f701195U,
  0x5a87749755677978U, 0x6997668867756988U, 0x6975758787765866U, 0x6765879786887967U,
  0x7a56788657695779U, 0x5945688658995999U, 0x6686578557778756U, 0x4379858757575786U,
  0x5497568775567968U, 0x6355689788755976U, 0x6576679567686866U, 0x8156686679896987U,
  0x8775579676586a59U, 0x8296659667586946U, 0x6799558677565988U, 0x9795569865677975U,
  0x99a4778566675776U, 0x9a67686558785786U, 0x87854565665a586aU, 0x9a77466765796769U,
  0x6498948777897969U, 0x72a8678777597889U, 0x6496677686694789U, 0x925567767779668aU,
  0xa857756657695668U, 0xa967668676966758U, 0xa745898769868868U, 0xa866969667578567U,
  0xa597678687786597U, 0xca77589887776777U, 0x7a58789577749464U, 0x5866657765945694U,
  0x7a47788778736773U, 0x788789a779748664U, 0x8888769565547453U, 0x8997778675537474U,
  0x6676775876568474U, 0x6788676666777457U, 0x5968666886768775U, 0x5566667995765586U,
  0x5576799687758898U, 0x8875668878767677U, 0x9675956955679664U, 0x6978665855676675U,
  0x7987756774769666U, 0x6767548677755577U, 0x5588778697766775U, 0x8877888888877675U,
  0x8586666767857655U, 0x5777758765759566U, 0x5677856767666447U, 0x5896857686557556U,
  0x6587778865555567U, 0x6676977898775797U, 0x6776655777577765U, 0x5687866865568577U,
  0x4697675757556676U, 0x5796755977759555U, 0x7789656976658595U, 0x5578686886556777U,
  0x8685767677576468U, 0x6697577655664656U, 0x5497766775668565U, 0x6886665567768666U,
  0x5896756887568676U, 0x5677877875557695U, 0x8887698697676857U, 0x7898795778795659U,
  0x9665665666695668U, 0x7585676877885868U, 0x7877854876577769U, 0x5778776567598569U,
  0x7867565556766566U, 0x5776677546779664U, 0x6655775667565665U, 0x5765566688866555U,
  0x7558767768457765U, 0x7866767757577686U, 0x7676567575866566U, 0x7757776567778565U,
  0x7659665765677467U, 0x5775674567655575U, 0x7758757666577676U, 0x5667567666655687U,
  0x5666556675858756U, 0x7766566556678755U, 0x7666567745668757U, 0x5768776574558576U,
  0x6558566765756547U, 0x7676685566858566U, 0x5775757867876755U, 0x5767757758877577U,
  0x5757466655956565U, 0x6958667766676556U, 0x7866567677556586U, 0x7778656587664666U,
  0x6465575666867676U, 0x6568765776656576U, 0x6766566566855566U, 0x7866567557867766U,
  0x6578667665656675U, 0x7655657575865775U, 0x5666776766656566U, 0x5657567677875686U,
  0x5767576655857657U, 0x5865777776767754U, 0x7865766675767645U, 0x7577576575766566U,
  0x7666565567656555U, 0x5755676676656466U, 0x6765557765776457U, 0x5665776665665755U,
  0x6754667776555565U, 0x6676556777557765U, 0x5575765756556775U, 0x5655755665555766U,
  0x6776756567467555U, 0x6566677555667665U, 0x6555565564655656U, 0x5576576665565777U,
  0x5655655765656756U, 0x6657766656656475U, 0x5655667655677567U, 0x5777666557777567U,
  0x6677676766556575U, 0x7775775577456554U, 0x7577674676755577U, 0x6755565666646465U,
  0x6566757567667557U, 0x5746646547665555U, 0x5756755665666767U, 0x5677776566677675U,
  0x7556676766656666U, 0x5766655676566776U, 0x6666555766557557U, 0x6567666666776557U,
  0x7657775675675777U, 0x6767665566774555U, 0x7766777755756665U, 0x5767656556855767U,
  0x5766778756765765U, 0x7765568767756755U, 0x5857756456855556U, 0x7555767566656775U,
  0x5757675589668685U, 0x5776667657779765U, 0x6775868599758786U, 0x6777688598849687U,
  0x7786675767666766U, 0x5788676788575595U, 0x8766888587866565U, 0x5766777667865767U,
  0x4777786758976686U, 0x7685776558645766U, 0x6677797677766575U, 0x7576686786667584U,
  0x6687786688976775U, 0x5788767787778564U, 0x6875777568865676U, 0x6586666678567674U,
  0x6677666687945886U, 0x7676686767756596U, 0x5765776678767687U, 0x6667675786777767U,
  0x4885685768857764U, 0x5877765666757875U, 0x6895876575856585U, 0x5786665887767775U,
  0x8577886587876686U, 0x8577787788878776U, 0x4887796677877695U, 0x5876877569765777U,
  0x8795878678867656U, 0x8775967677756687U, 0x7776898878867586U, 0x7767886797879577U,
  0x5885877689957575U, 0x6756877588977596U, 0x8776897578877695U, 0x5675876778757786U,
  0x5675555446656477U, 0x6586655576667767U, 0x5546555656756556U, 0x5677675766565556U,
  0x7867665765567875U, 0x5757667578665656U, 0x7675477577455656U, 0x5677567767567557U,
  0x5656655666675767U, 0x6566556547677565U, 0x5766655566575857U, 0x5556667568855855U,
  0x7557566666755667U, 0x6677655666765565U, 0x6676475656766765U, 0x5576756756665655U,
  0x5766555675757655U, 0x5876757567556877U, 0x7775776775756766U, 0x6677557555755567U,
  0x6457654665556674U, 0x7755766655764665U, 0x5866557657555775U, 0x6475555565565776U,
  0x5767645575556665U, 0x7556677676566657U, 0x6755557676566667U, 0x6577665556456655U,
  0x5567547765655556U, 0x7955765565665767U, 0x5785577566776765U, 0x6665657557576575U,
  0x4756766676667674U, 0x6755556465567664U, 0x7657575756665575U, 0x7677766577656567U,
  0x4d7875557768767aU, 0x5b6567585579577bU, 0x6b8876585569887aU, 0x5b8586788779787aU,
  0x4975556676696969U, 0x4c7787676867777aU, 0xc856877978775553U, 0xa759685767765574U,
  0xb945777777656564U, 0xa958767995566674U, 0xba67576986574573U, 0xb987887789855452U,
  0x4574786778649764U, 0x5465884776666875U, 0x4466676755677675U, 0x5577865757547755U,
  0x5a65876677556585U, 0x2667676867635565U, 0x4055882678686558U, 0x4066673766775776U,
  0x4166673758666577U, 0x4157655676566776U, 0x3066776887667757U, 0x3067874765675686U,
  0xa365868756596567U, 0x8266656777797568U, 0x9368779886585568U, 0x9256868667585558U,
  0xa845869866785458U, 0xa967966785677557U, 0x596866a776697969U, 0x7a6866a868796a89U,
  0x8767789668595958U, 0x478878a778596b7aU, 0x39576688785a5859U, 0x5776669865599a78U,
  0x8896766776757547U, 0x9767765865777458U, 0x9478864666767578U, 0xa976865666878567U,
  0xa477654777858588U, 0x8987776988847575U, 0x9888875795566767U, 0x7a69885788777656U,
  0x8a58776786777468U, 0xab78775878687687U, 0x8977666797877687U, 0x8c77886866768675U,
  0x7566867958658548U, 0x6a68757686868588U, 0x8957894787966566U, 0x7767766888897559U,
  0x5777885876778787U, 0x4788787976857677U, 0x5568875977837564U, 0x7299865885647566U,
  0x6557786668647675U, 0x8649686676848585U, 0x7477766767747755U, 0x4776576986648665U,
  0x4178756777769886U, 0x43a7756785587757U, 0x6687655876768768U, 0x4276676678687779U,
  0x5857755685778978U, 0x5877777867888968U, 0x9399556985597979U, 0x95876679766a7a79U,
  0x81797558865a7a6aU, 0x66897549647a787aU, 0x78875757744a7a8aU, 0x62667557775b7a89U,
  0xa088766676868584U, 0xa288775656878656U, 0x9376587865868665U, 0x9279677875876686U,
  0xb257768867678765U, 0xb268678687667665U, 0x459767876867878aU, 0x479676466679767aU,
  0x4769656867777569U, 0x368866578777676aU, 0x3687775667897769U, 0x3967768876678769U,
  0x9b8758786679966aU, 0x8a69869756687669U, 0x9869568777796678U, 0x7987577777888658U,
  0x956977567578768aU, 0x8568877688887879U, 0xaf66559886756764U, 0x9d7776a657848574U,
  0x7c6877a866746565U, 0x9e68569766746574U, 0x9d66769777646875U, 0x8f69658665748764U,
  0x2898756657656a85U, 0x2987556665656a66U, 0x2996676877766a57U, 0x2b89766677766866U,
  0x2578576866676a66U, 0x2777765666766986U, 0x8588656766578669U, 0x84776658667a765aU,
  0x7569564876797689U, 0x8457675775898769U, 0x7598554865787779U, 0x7458764956797679U,
  0xbde86dc43e1e903dU, 0xbd75f877bd438b1dU, 0xbd75f8613d606bbdU, 0xbe16f0ecbe27f986U,
  0x3f3ebe7a3ceb15c1U, 0xbe356bbd3ee9c40eU, 0x3d83c8f73f0189f2U, 0x3f1dd0333ed539d0U,
  0xbf44e3e6bedcc6e2U, 0x3e13714f3f2872d1U, 0x3f059fe73ef7af37U, 0xbf14888d3e50cc87U,
  0xbf302feebeb26c9fU, 0xbe481be13f1f9d5cU, 0xbe1cf2cc3f198657U, 0x39d0ee7fbc49f759U,
  0x3ef63a4bbecca7fbU, 0x3f3cb6f83e034124U, 0x3e4c4d9abd3fc4a8U, 0xbe1a7cc7U,
};



AI_API_DECLARE_BEGIN

/*!
 * @brief Get network weights array pointer as a handle ptr.
 * @ingroup wmc_data
 * @return a ai_handle pointer to the weights array
 */
AI_DEPRECATED
AI_API_ENTRY
ai_handle ai_wmc_data_weights_get(void)
{
  static const ai_u8* const s_wmc_weights_map[1 + 2] = {
    AI_PTR(AI_MAGIC_MARKER),
    AI_PTR(s_wmc_weights_array_u64),
    AI_PTR(AI_MAGIC_MARKER)
  };

  return AI_HANDLE_PTR(s_wmc_weights_map);

}


/*!
 * @brief Get network params configuration data structure.
 * @ingroup wmc_data
 * @return true if a valid configuration is present, false otherwise
 */
AI_API_ENTRY
ai_bool ai_wmc_data_params_get(ai_handle network, ai_network_params* params)
{
  if (!(network && params)) return false;
  
  static ai_buffer s_wmc_data_map_activations[AI_WMC_DATA_ACTIVATIONS_COUNT] = {
    AI_BUFFER_OBJ_INIT(AI_BUFFER_FORMAT_U8, 1, 1, AI_WMC_DATA_ACTIVATIONS_SIZE, 1, NULL)
  };

  const ai_buffer_array map_activations = 
    AI_BUFFER_ARRAY_OBJ_INIT(AI_FLAG_NONE, AI_WMC_DATA_ACTIVATIONS_COUNT, s_wmc_data_map_activations);
  
  static ai_buffer s_wmc_data_map_weights[AI_WMC_DATA_WEIGHTS_COUNT] = {
    AI_BUFFER_OBJ_INIT(AI_BUFFER_FORMAT_U8, 1, 1, 12736, 1, s_wmc_weights_array_u64),
    
  };

  const ai_buffer_array map_weights = 
    AI_BUFFER_ARRAY_OBJ_INIT(AI_FLAG_NONE, AI_WMC_DATA_WEIGHTS_COUNT, s_wmc_data_map_weights);

  return ai_platform_bind_network_params(network, params, &map_weights, &map_activations);
}


AI_API_DECLARE_END

/****END OF FILE****/

